#include <cstdint>
const unsigned char model_2_categories_tflite[] = {

  0x1c, 0x00, 0x00, 0x00, 0x54, 0x46, 0x4c, 0x33, 0x14, 0x00, 0x20, 0x00, 
  0x1c, 0x00, 0x18, 0x00, 0x14, 0x00, 0x10, 0x00, 0x0c, 0x00, 0x00, 0x00, 
  0x08, 0x00, 0x04, 0x00, 0x14, 0x00, 0x00, 0x00, 0x1c, 0x00, 0x00, 0x00, 
  0x8c, 0x00, 0x00, 0x00, 0xe4, 0x00, 0x00, 0x00, 0xb8, 0x05, 0x00, 0x00, 
  0xc8, 0x05, 0x00, 0x00, 0xd0, 0x0c, 0x00, 0x00, 0x03, 0x00, 0x00, 0x00, 
  0x01, 0x00, 0x00, 0x00, 0x04, 0x00, 0x00, 0x00, 0xf6, 0xf9, 0xff, 0xff, 
  0x0c, 0x00, 0x00, 0x00, 0x1c, 0x00, 0x00, 0x00, 0x3c, 0x00, 0x00, 0x00, 
  0x0f, 0x00, 0x00, 0x00, 0x73, 0x65, 0x72, 0x76, 0x69, 0x6e, 0x67, 0x5f, 
  0x64, 0x65, 0x66, 0x61, 0x75, 0x6c, 0x74, 0x00, 0x01, 0x00, 0x00, 0x00, 
  0x04, 0x00, 0x00, 0x00, 0x90, 0xff, 0xff, 0xff, 0x0d, 0x00, 0x00, 0x00, 
  0x04, 0x00, 0x00, 0x00, 0x08, 0x00, 0x00, 0x00, 0x6f, 0x75, 0x74, 0x70, 
  0x75, 0x74, 0x5f, 0x30, 0x00, 0x00, 0x00, 0x00, 0x01, 0x00, 0x00, 0x00, 
  0x04, 0x00, 0x00, 0x00, 0xda, 0xfa, 0xff, 0xff, 0x04, 0x00, 0x00, 0x00, 
  0x0f, 0x00, 0x00, 0x00, 0x6b, 0x65, 0x72, 0x61, 0x73, 0x5f, 0x74, 0x65, 
  0x6e, 0x73, 0x6f, 0x72, 0x5f, 0x31, 0x31, 0x00, 0x02, 0x00, 0x00, 0x00, 
  0x34, 0x00, 0x00, 0x00, 0x04, 0x00, 0x00, 0x00, 0xdc, 0xff, 0xff, 0xff, 
  0x10, 0x00, 0x00, 0x00, 0x04, 0x00, 0x00, 0x00, 0x13, 0x00, 0x00, 0x00, 
  0x43, 0x4f, 0x4e, 0x56, 0x45, 0x52, 0x53, 0x49, 0x4f, 0x4e, 0x5f, 0x4d, 
  0x45, 0x54, 0x41, 0x44, 0x41, 0x54, 0x41, 0x00, 0x08, 0x00, 0x0c, 0x00, 
  0x08, 0x00, 0x04, 0x00, 0x08, 0x00, 0x00, 0x00, 0x0f, 0x00, 0x00, 0x00, 
  0x04, 0x00, 0x00, 0x00, 0x13, 0x00, 0x00, 0x00, 0x6d, 0x69, 0x6e, 0x5f, 
  0x72, 0x75, 0x6e, 0x74, 0x69, 0x6d, 0x65, 0x5f, 0x76, 0x65, 0x72, 0x73, 
  0x69, 0x6f, 0x6e, 0x00, 0x11, 0x00, 0x00, 0x00, 0xd0, 0x04, 0x00, 0x00, 
  0xc8, 0x04, 0x00, 0x00, 0xa8, 0x04, 0x00, 0x00, 0x70, 0x04, 0x00, 0x00, 
  0x5c, 0x04, 0x00, 0x00, 0x3c, 0x04, 0x00, 0x00, 0xac, 0x03, 0x00, 0x00, 
  0x9c, 0x01, 0x00, 0x00, 0x0c, 0x01, 0x00, 0x00, 0xbc, 0x00, 0x00, 0x00, 
  0xb4, 0x00, 0x00, 0x00, 0xac, 0x00, 0x00, 0x00, 0xa4, 0x00, 0x00, 0x00, 
  0x9c, 0x00, 0x00, 0x00, 0x94, 0x00, 0x00, 0x00, 0x74, 0x00, 0x00, 0x00, 
  0x04, 0x00, 0x00, 0x00, 0x9a, 0xfb, 0xff, 0xff, 0x04, 0x00, 0x00, 0x00, 
  0x60, 0x00, 0x00, 0x00, 0x10, 0x00, 0x00, 0x00, 0x00, 0x00, 0x00, 0x00, 
  0x08, 0x00, 0x0e, 0x00, 0x08, 0x00, 0x04, 0x00, 0x08, 0x00, 0x00, 0x00, 
  0x10, 0x00, 0x00, 0x00, 0x24, 0x00, 0x00, 0x00, 0x00, 0x00, 0x06, 0x00, 
  0x08, 0x00, 0x04, 0x00, 0x06, 0x00, 0x00, 0x00, 0x04, 0x00, 0x00, 0x00, 
  0x00, 0x00, 0x00, 0x00, 0x0c, 0x00, 0x18, 0x00, 0x14, 0x00, 0x10, 0x00, 
  0x0c, 0x00, 0x04, 0x00, 0x0c, 0x00, 0x00, 0x00, 0x31, 0xba, 0x96, 0x0e, 
  0x52, 0x05, 0xca, 0x33, 0x02, 0x00, 0x00, 0x00, 0x02, 0x00, 0x00, 0x00, 
  0x04, 0x00, 0x00, 0x00, 0x06, 0x00, 0x00, 0x00, 0x32, 0x2e, 0x32, 0x30, 
  0x2e, 0x30, 0x00, 0x00, 0x06, 0xfc, 0xff, 0xff, 0x04, 0x00, 0x00, 0x00, 
  0x10, 0x00, 0x00, 0x00, 0x31, 0x2e, 0x31, 0x34, 0x2e, 0x30, 0x00, 0x00, 
  0x00, 0x00, 0x00, 0x00, 0x00, 0x00, 0x00, 0x00, 0x14, 0xf5, 0xff, 0xff, 
  0x18, 0xf5, 0xff, 0xff, 0x1c, 0xf5, 0xff, 0xff, 0x20, 0xf5, 0xff, 0xff, 
  0x24, 0xf5, 0xff, 0xff, 0x36, 0xfc, 0xff, 0xff, 0x04, 0x00, 0x00, 0x00, 
  0x40, 0x00, 0x00, 0x00, 0x2e, 0x7a, 0xf1, 0x3c, 0x30, 0xa5, 0xea, 0xbc, 
  0xb8, 0x0f, 0xb5, 0x3c, 0xba, 0xc0, 0xc3, 0xbc, 0x63, 0xe4, 0xf5, 0xbc, 
  0x03, 0x89, 0xa7, 0xbc, 0xca, 0x1d, 0xb7, 0xbc, 0xd7, 0x80, 0xee, 0xbc, 
  0x0c, 0xaa, 0x5f, 0x3b, 0x00, 0x00, 0x00, 0x00, 0x2c, 0xb0, 0x99, 0x39, 
  0x00, 0x00, 0x00, 0x00, 0x1e, 0x37, 0xe8, 0xbc, 0x40, 0x3d, 0xe9, 0xbc, 
  0xc9, 0x1b, 0xca, 0x3b, 0x30, 0x84, 0x92, 0x3c, 0x82, 0xfc, 0xff, 0xff, 
  0x04, 0x00, 0x00, 0x00, 0x80, 0x00, 0x00, 0x00, 0x57, 0x0b, 0x1b, 0x3f, 
  0x7d, 0xc3, 0xe6, 0x3e, 0x0f, 0xc9, 0x5e, 0x3e, 0x19, 0xd7, 0x95, 0xbd, 
  0x0d, 0x84, 0xe6, 0xbe, 0xbc, 0xd0, 0xa7, 0x3e, 0x8c, 0xdf, 0xc6, 0x3e, 
  0x2e, 0x9f, 0x4e, 0x3e, 0xd6, 0x93, 0xb9, 0x3e, 0x57, 0x85, 0xb9, 0xbe, 
  0x90, 0xb9, 0x9b, 0x3e, 0x51, 0x74, 0xd4, 0x3e, 0xef, 0x5c, 0xa7, 0xbe, 
  0x96, 0x6c, 0x5d, 0x3e, 0xb5, 0x62, 0xd8, 0x3e, 0x97, 0x0c, 0x89, 0xbe, 
  0x15, 0x74, 0x1d, 0x3d, 0xb4, 0x43, 0x88, 0xbd, 0x40, 0x2e, 0x45, 0x3c, 
  0x60, 0xac, 0x31, 0xbd, 0xd6, 0xc8, 0x47, 0x3e, 0xf4, 0xa2, 0xc7, 0x3e, 
  0x8c, 0xeb, 0xd4, 0xbe, 0x57, 0x4b, 0xaa, 0xbe, 0xb3, 0x03, 0x4a, 0x3e, 
  0x32, 0x2b, 0x97, 0x3d, 0x3b, 0xca, 0xe0, 0x3e, 0xa5, 0xa3, 0x9c, 0xbd, 
  0x0d, 0xb9, 0xfb, 0x3e, 0xbf, 0xae, 0xff, 0xbe, 0x5d, 0x14, 0xad, 0x3e, 
  0xbb, 0xb5, 0xf6, 0xbe, 0x0e, 0xfd, 0xff, 0xff, 0x04, 0x00, 0x00, 0x00, 
  0x00, 0x02, 0x00, 0x00, 0xf0, 0x03, 0x0e, 0x3d, 0xbf, 0xac, 0xe2, 0xbd, 
  0xff, 0xf3, 0x28, 0xbe, 0x09, 0x62, 0xd6, 0x3e, 0xea, 0x49, 0x1a, 0xbe, 
  0x9b, 0x37, 0x41, 0x3e, 0x6b, 0x02, 0x8c, 0xbe, 0x2a, 0x92, 0x9b, 0xbe, 
  0x44, 0xf5, 0xb3, 0xbe, 0x80, 0xe9, 0x01, 0x3e, 0x9f, 0x86, 0x88, 0x3e, 
  0xdc, 0xa6, 0xd6, 0x3e, 0x89, 0x89, 0x01, 0xbe, 0x26, 0x65, 0x92, 0xbe, 
  0x32, 0x2a, 0xed, 0x3e, 0xab, 0xd5, 0xdd, 0x3e, 0x70, 0x2e, 0xbb, 0xbe, 
  0x80, 0x84, 0x45, 0xbc, 0xa8, 0x4b, 0x71, 0x3e, 0x54, 0x7f, 0x80, 0x3e, 
  0x08, 0x04, 0x65, 0x3e, 0x80, 0x47, 0xc4, 0xbc, 0xd0, 0x70, 0x59, 0xbe, 
  0xe8, 0x06, 0xc0, 0xbe, 0xb4, 0x97, 0xba, 0x3e, 0xb8, 0x50, 0x17, 0xbe, 
  0x3c, 0x8a, 0x81, 0xbe, 0xa8, 0x1d, 0x87, 0x3e, 0x6c, 0x20, 0xfa, 0x3e, 
  0xb0, 0x0e, 0xda, 0x3e, 0x00, 0xdc, 0x74, 0xbd, 0xb0, 0xe2, 0xe2, 0x3d, 
  0x52, 0xd6, 0x69, 0xbe, 0x56, 0x69, 0x10, 0xbe, 0xad, 0x2f, 0x9c, 0xbe, 
  0xec, 0x25, 0x9e, 0x3e, 0xd9, 0x5a, 0x93, 0x3e, 0xd9, 0xdb, 0x56, 0x3e, 
  0x84, 0x82, 0xa3, 0xbd, 0x58, 0xc2, 0xeb, 0x3e, 0x96, 0x54, 0xc7, 0x3d, 
  0xa0, 0x3b, 0x23, 0x3e, 0xe9, 0x9a, 0x01, 0x3e, 0xac, 0xe5, 0x93, 0xbe, 
  0xf3, 0x85, 0xad, 0x3e, 0x76, 0xa7, 0xbf, 0xbb, 0x9e, 0x20, 0xa1, 0x3e, 
  0x14, 0x57, 0xfa, 0x3e, 0xe2, 0x13, 0x9c, 0x3e, 0x31, 0xc8, 0x1e, 0x3d, 
  0xe9, 0xf4, 0x10, 0x3e, 0x43, 0xd6, 0x9f, 0xbd, 0xc4, 0x90, 0xcf, 0xbe, 
  0x8a, 0xf7, 0x86, 0xbe, 0x78, 0x14, 0x32, 0xbe, 0x1f, 0x1a, 0xb7, 0xbe, 
  0x30, 0xa6, 0xec, 0xbe, 0x68, 0x98, 0xe5, 0x3e, 0x6e, 0x02, 0xeb, 0xbd, 
  0xb0, 0x74, 0xa4, 0xbe, 0x8e, 0x8c, 0xe7, 0xbe, 0x68, 0x65, 0xd5, 0x3e, 
  0x40, 0x45, 0x98, 0x3c, 0x94, 0x5e, 0xdc, 0xbe, 0x76, 0xc9, 0x79, 0x3e, 
  0x8e, 0xb1, 0x54, 0x3e, 0x17, 0x14, 0x5e, 0x3e, 0x58, 0x59, 0x35, 0x3c, 
  0x7c, 0xdc, 0xbf, 0x3c, 0x76, 0xb8, 0x85, 0xbe, 0xe2, 0xbb, 0x5e, 0x3e, 
  0xc4, 0xa4, 0xd8, 0x3e, 0xfa, 0x5d, 0xad, 0x3e, 0x10, 0x69, 0x9a, 0xbd, 
  0x45, 0x8e, 0xb7, 0x3e, 0xf8, 0xaf, 0x25, 0xbe, 0x24, 0xa3, 0x69, 0x3e, 
  0x40, 0xb8, 0x4e, 0x3e, 0xa8, 0x5a, 0xe8, 0x3e, 0xb6, 0x9e, 0x9c, 0xbe, 
  0xc4, 0xc1, 0xd8, 0xbe, 0x00, 0xe0, 0x8c, 0xba, 0x08, 0x04, 0x81, 0x3e, 
  0x88, 0x8b, 0x08, 0x3e, 0x80, 0x99, 0x58, 0x3d, 0xa0, 0xbc, 0x8b, 0xbd, 
  0x20, 0x8e, 0xf8, 0xbd, 0xf0, 0xab, 0x67, 0x3e, 0xf0, 0xf0, 0xae, 0xbd, 
  0x30, 0xf5, 0xea, 0x3d, 0x40, 0xb8, 0xb6, 0x3c, 0x64, 0x5a, 0xd2, 0xbe, 
  0x34, 0x52, 0xa3, 0x3e, 0x20, 0x05, 0x3d, 0x3d, 0xc0, 0x56, 0x96, 0xbc, 
  0x48, 0x0c, 0x5a, 0x3e, 0x80, 0x78, 0x98, 0xbe, 0xd8, 0x2c, 0x6a, 0xbe, 
  0xcc, 0x22, 0xba, 0x3e, 0x34, 0x29, 0xf0, 0xbe, 0xc0, 0xe7, 0x84, 0x3e, 
  0x00, 0x93, 0xea, 0xbd, 0x54, 0x54, 0xb4, 0xbe, 0xc0, 0x29, 0xf9, 0x3d, 
  0x18, 0x80, 0x16, 0x3e, 0xe8, 0xf1, 0xc9, 0x3e, 0x40, 0xa6, 0xcc, 0x3c, 
  0x2c, 0x6a, 0x8c, 0x3e, 0x20, 0xc3, 0xdf, 0xbe, 0xe0, 0xe4, 0x7d, 0xbd, 
  0x54, 0x71, 0xbd, 0xbe, 0x10, 0x36, 0x7d, 0x3e, 0xd2, 0xc0, 0x96, 0x3e, 
  0xed, 0x41, 0xdf, 0xbe, 0x30, 0xaa, 0x9b, 0x3e, 0xf9, 0xb2, 0x9b, 0xbe, 
  0x94, 0x32, 0xb8, 0x3e, 0x15, 0x9e, 0x03, 0x3e, 0x45, 0x9c, 0xef, 0x3d, 
  0x3d, 0xfd, 0xe5, 0x3e, 0x39, 0x8c, 0x61, 0x3e, 0x6c, 0x08, 0xae, 0xbe, 
  0x69, 0x92, 0x93, 0xbd, 0xfc, 0x7a, 0x86, 0x3e, 0xfe, 0xc5, 0x97, 0xbd, 
  0x4d, 0x10, 0x6a, 0x3e, 0x5e, 0x24, 0xa1, 0x3c, 0xb9, 0x2e, 0x2b, 0x3e, 
  0x1a, 0xff, 0xff, 0xff, 0x04, 0x00, 0x00, 0x00, 0x80, 0x00, 0x00, 0x00, 
  0x21, 0xac, 0xea, 0xbe, 0x6c, 0x1e, 0xf5, 0xbe, 0xd4, 0x1e, 0xea, 0x3e, 
  0x5b, 0x73, 0x0f, 0x3f, 0x95, 0x32, 0x81, 0x3e, 0xe4, 0x21, 0xe0, 0xbe, 
  0x6a, 0x18, 0xb0, 0x3e, 0x22, 0x43, 0x82, 0x3e, 0xdf, 0x07, 0x51, 0x3d, 
  0x80, 0x5f, 0xb4, 0x3b, 0xaa, 0xd8, 0xed, 0x3e, 0xca, 0xd2, 0xd7, 0xbe, 
  0x2f, 0xc5, 0x06, 0x3f, 0x96, 0x1f, 0x91, 0x3e, 0x57, 0x73, 0xae, 0xbe, 
  0x79, 0xf2, 0x0b, 0x3f, 0x97, 0xcb, 0x67, 0x3e, 0x82, 0x64, 0xd9, 0x3e, 
  0x2e, 0x17, 0xf2, 0xbd, 0x0d, 0xd2, 0xd4, 0xbe, 0x08, 0xcc, 0x77, 0x3e, 
  0x8b, 0x27, 0xe1, 0xbe, 0xb0, 0x4b, 0x41, 0xbd, 0x91, 0x4f, 0xcd, 0x3e, 
  0xed, 0x4c, 0xfb, 0x3d, 0x77, 0xa6, 0x1a, 0xbf, 0x9c, 0x51, 0x1f, 0xbf, 
  0xb0, 0x19, 0xb3, 0xbe, 0xd5, 0x66, 0xcd, 0x3b, 0xd8, 0x69, 0x8d, 0xbd, 
  0x9d, 0x19, 0x06, 0x3f, 0x54, 0x6e, 0x24, 0x3f, 0xa6, 0xff, 0xff, 0xff, 
  0x04, 0x00, 0x00, 0x00, 0x10, 0x00, 0x00, 0x00, 0x98, 0x2d, 0xd7, 0x3e, 
  0x72, 0x3f, 0x5b, 0x3e, 0xfe, 0x4c, 0x70, 0xbf, 0x35, 0xf0, 0x57, 0xbf, 
  0xc2, 0xff, 0xff, 0xff, 0x04, 0x00, 0x00, 0x00, 0x04, 0x00, 0x00, 0x00, 
  0x07, 0x52, 0xf0, 0xbc, 0xd2, 0xff, 0xff, 0xff, 0x04, 0x00, 0x00, 0x00, 
  0x20, 0x00, 0x00, 0x00, 0xa9, 0xbf, 0xf1, 0x3c, 0x00, 0x00, 0x00, 0x00, 
  0x98, 0xdf, 0xea, 0xbc, 0xaf, 0xfd, 0x5e, 0xbc, 0xca, 0x0d, 0xcf, 0xbc, 
  0x00, 0x00, 0x00, 0x00, 0x00, 0x00, 0x00, 0x00, 0x1a, 0x27, 0xf2, 0x3c, 
  0x00, 0x00, 0x06, 0x00, 0x08, 0x00, 0x04, 0x00, 0x06, 0x00, 0x00, 0x00, 
  0x04, 0x00, 0x00, 0x00, 0x10, 0x00, 0x00, 0x00, 0x02, 0x1c, 0xef, 0xbc, 
  0xd6, 0x00, 0xee, 0xbc, 0xcd, 0xea, 0xf0, 0x3c, 0x33, 0x95, 0x77, 0x3a, 
  0x14, 0xf9, 0xff, 0xff, 0x18, 0xf9, 0xff, 0xff, 0x0f, 0x00, 0x00, 0x00, 
  0x4d, 0x4c, 0x49, 0x52, 0x20, 0x43, 0x6f, 0x6e, 0x76, 0x65, 0x72, 0x74, 
  0x65, 0x64, 0x2e, 0x00, 0x01, 0x00, 0x00, 0x00, 0x14, 0x00, 0x00, 0x00, 
  0x00, 0x00, 0x0e, 0x00, 0x18, 0x00, 0x14, 0x00, 0x10, 0x00, 0x0c, 0x00, 
  0x08, 0x00, 0x04, 0x00, 0x0e, 0x00, 0x00, 0x00, 0x14, 0x00, 0x00, 0x00, 
  0x1c, 0x00, 0x00, 0x00, 0x50, 0x01, 0x00, 0x00, 0x54, 0x01, 0x00, 0x00, 
  0x58, 0x01, 0x00, 0x00, 0x04, 0x00, 0x00, 0x00, 0x6d, 0x61, 0x69, 0x6e, 
  0x00, 0x00, 0x00, 0x00, 0x05, 0x00, 0x00, 0x00, 0xf8, 0x00, 0x00, 0x00, 
  0xb0, 0x00, 0x00, 0x00, 0x68, 0x00, 0x00, 0x00, 0x34, 0x00, 0x00, 0x00, 
  0x10, 0x00, 0x00, 0x00, 0x00, 0x00, 0x0a, 0x00, 0x10, 0x00, 0x0c, 0x00, 
  0x08, 0x00, 0x04, 0x00, 0x0a, 0x00, 0x00, 0x00, 0x0c, 0x00, 0x00, 0x00, 
  0x10, 0x00, 0x00, 0x00, 0x01, 0x00, 0x00, 0x00, 0x01, 0x00, 0x00, 0x00, 
  0x0d, 0x00, 0x00, 0x00, 0x01, 0x00, 0x00, 0x00, 0x0c, 0x00, 0x00, 0x00, 
  0x9a, 0xff, 0xff, 0xff, 0x10, 0x00, 0x00, 0x00, 0x00, 0x00, 0x00, 0x08, 
  0x0c, 0x00, 0x00, 0x00, 0x10, 0x00, 0x00, 0x00, 0xc4, 0xf9, 0xff, 0xff, 
  0x01, 0x00, 0x00, 0x00, 0x0c, 0x00, 0x00, 0x00, 0x03, 0x00, 0x00, 0x00, 
  0x0b, 0x00, 0x00, 0x00, 0x04, 0x00, 0x00, 0x00, 0x03, 0x00, 0x00, 0x00, 
  0xca, 0xff, 0xff, 0xff, 0x10, 0x00, 0x00, 0x00, 0x00, 0x00, 0x00, 0x08, 
  0x10, 0x00, 0x00, 0x00, 0x14, 0x00, 0x00, 0x00, 0x76, 0xff, 0xff, 0xff, 
  0x00, 0x00, 0x00, 0x01, 0x01, 0x00, 0x00, 0x00, 0x0b, 0x00, 0x00, 0x00, 
  0x03, 0x00, 0x00, 0x00, 0x0a, 0x00, 0x00, 0x00, 0x05, 0x00, 0x00, 0x00, 
  0x01, 0x00, 0x00, 0x00, 0x00, 0x00, 0x0e, 0x00, 0x14, 0x00, 0x00, 0x00, 
  0x10, 0x00, 0x0c, 0x00, 0x0b, 0x00, 0x04, 0x00, 0x0e, 0x00, 0x00, 0x00, 
  0x10, 0x00, 0x00, 0x00, 0x00, 0x00, 0x00, 0x08, 0x10, 0x00, 0x00, 0x00, 
  0x14, 0x00, 0x00, 0x00, 0xba, 0xff, 0xff, 0xff, 0x00, 0x00, 0x00, 0x01, 
  0x01, 0x00, 0x00, 0x00, 0x0a, 0x00, 0x00, 0x00, 0x03, 0x00, 0x00, 0x00, 
  0x09, 0x00, 0x00, 0x00, 0x06, 0x00, 0x00, 0x00, 0x02, 0x00, 0x00, 0x00, 
  0x00, 0x00, 0x0e, 0x00, 0x16, 0x00, 0x00, 0x00, 0x10, 0x00, 0x0c, 0x00, 
  0x0b, 0x00, 0x04, 0x00, 0x0e, 0x00, 0x00, 0x00, 0x18, 0x00, 0x00, 0x00, 
  0x00, 0x00, 0x00, 0x08, 0x18, 0x00, 0x00, 0x00, 0x1c, 0x00, 0x00, 0x00, 
  0x00, 0x00, 0x06, 0x00, 0x08, 0x00, 0x07, 0x00, 0x06, 0x00, 0x00, 0x00, 
  0x00, 0x00, 0x00, 0x01, 0x01, 0x00, 0x00, 0x00, 0x09, 0x00, 0x00, 0x00, 
  0x03, 0x00, 0x00, 0x00, 0x00, 0x00, 0x00, 0x00, 0x07, 0x00, 0x00, 0x00, 
  0x08, 0x00, 0x00, 0x00, 0x01, 0x00, 0x00, 0x00, 0x0d, 0x00, 0x00, 0x00, 
  0x01, 0x00, 0x00, 0x00, 0x00, 0x00, 0x00, 0x00, 0x0e, 0x00, 0x00, 0x00, 
  0x20, 0x05, 0x00, 0x00, 0xcc, 0x04, 0x00, 0x00, 0x78, 0x04, 0x00, 0x00, 
  0x3c, 0x04, 0x00, 0x00, 0xfc, 0x03, 0x00, 0x00, 0xbc, 0x03, 0x00, 0x00, 
  0x7c, 0x03, 0x00, 0x00, 0x2c, 0x03, 0x00, 0x00, 0xc0, 0x02, 0x00, 0x00, 
  0x20, 0x02, 0x00, 0x00, 0x80, 0x01, 0x00, 0x00, 0xe0, 0x00, 0x00, 0x00, 
  0x60, 0x00, 0x00, 0x00, 0x04, 0x00, 0x00, 0x00, 0x2e, 0xfb, 0xff, 0xff, 
  0x00, 0x00, 0x00, 0x01, 0x14, 0x00, 0x00, 0x00, 0x1c, 0x00, 0x00, 0x00, 
  0x1c, 0x00, 0x00, 0x00, 0x0e, 0x00, 0x00, 0x00, 0x34, 0x00, 0x00, 0x00, 
  0x02, 0x00, 0x00, 0x00, 0xff, 0xff, 0xff, 0xff, 0x01, 0x00, 0x00, 0x00, 
  0x18, 0xfb, 0xff, 0xff, 0x1b, 0x00, 0x00, 0x00, 0x53, 0x74, 0x61, 0x74, 
  0x65, 0x66, 0x75, 0x6c, 0x50, 0x61, 0x72, 0x74, 0x69, 0x74, 0x69, 0x6f, 
  0x6e, 0x65, 0x64, 0x43, 0x61, 0x6c, 0x6c, 0x5f, 0x31, 0x3a, 0x30, 0x00, 
  0x02, 0x00, 0x00, 0x00, 0x01, 0x00, 0x00, 0x00, 0x01, 0x00, 0x00, 0x00, 
  0x86, 0xfb, 0xff, 0xff, 0x00, 0x00, 0x00, 0x01, 0x14, 0x00, 0x00, 0x00, 
  0x1c, 0x00, 0x00, 0x00, 0x1c, 0x00, 0x00, 0x00, 0x0d, 0x00, 0x00, 0x00, 
  0x58, 0x00, 0x00, 0x00, 0x02, 0x00, 0x00, 0x00, 0xff, 0xff, 0xff, 0xff, 
  0x01, 0x00, 0x00, 0x00, 0x70, 0xfb, 0xff, 0xff, 0x3c, 0x00, 0x00, 0x00, 
  0x73, 0x65, 0x71, 0x75, 0x65, 0x6e, 0x74, 0x69, 0x61, 0x6c, 0x5f, 0x31, 
  0x5f, 0x31, 0x2f, 0x64, 0x65, 0x6e, 0x73, 0x65, 0x5f, 0x37, 0x5f, 0x31, 
  0x2f, 0x4d, 0x61, 0x74, 0x4d, 0x75, 0x6c, 0x3b, 0x73, 0x65, 0x71, 0x75, 
  0x65, 0x6e, 0x74, 0x69, 0x61, 0x6c, 0x5f, 0x31, 0x5f, 0x31, 0x2f, 0x64, 
  0x65, 0x6e, 0x73, 0x65, 0x5f, 0x37, 0x5f, 0x31, 0x2f, 0x41, 0x64, 0x64, 
  0x00, 0x00, 0x00, 0x00, 0x02, 0x00, 0x00, 0x00, 0x01, 0x00, 0x00, 0x00, 
  0x01, 0x00, 0x00, 0x00, 0x02, 0xfc, 0xff, 0xff, 0x00, 0x00, 0x00, 0x01, 
  0x14, 0x00, 0x00, 0x00, 0x1c, 0x00, 0x00, 0x00, 0x1c, 0x00, 0x00, 0x00, 
  0x0c, 0x00, 0x00, 0x00, 0x78, 0x00, 0x00, 0x00, 0x02, 0x00, 0x00, 0x00, 
  0xff, 0xff, 0xff, 0xff, 0x04, 0x00, 0x00, 0x00, 0xec, 0xfb, 0xff, 0xff, 
  0x5e, 0x00, 0x00, 0x00, 0x73, 0x65, 0x71, 0x75, 0x65, 0x6e, 0x74, 0x69, 
  0x61, 0x6c, 0x5f, 0x31, 0x5f, 0x31, 0x2f, 0x64, 0x65, 0x6e, 0x73, 0x65, 
  0x5f, 0x36, 0x5f, 0x31, 0x2f, 0x4d, 0x61, 0x74, 0x4d, 0x75, 0x6c, 0x3b, 
  0x73, 0x65, 0x71, 0x75, 0x65, 0x6e, 0x74, 0x69, 0x61, 0x6c, 0x5f, 0x31, 
  0x5f, 0x31, 0x2f, 0x64, 0x65, 0x6e, 0x73, 0x65, 0x5f, 0x36, 0x5f, 0x31, 
  0x2f, 0x52, 0x65, 0x6c, 0x75, 0x3b, 0x73, 0x65, 0x71, 0x75, 0x65, 0x6e, 
  0x74, 0x69, 0x61, 0x6c, 0x5f, 0x31, 0x5f, 0x31, 0x2f, 0x64, 0x65, 0x6e, 
  0x73, 0x65, 0x5f, 0x36, 0x5f, 0x31, 0x2f, 0x42, 0x69, 0x61, 0x73, 0x41, 
  0x64, 0x64, 0x00, 0x00, 0x02, 0x00, 0x00, 0x00, 0x01, 0x00, 0x00, 0x00, 
  0x04, 0x00, 0x00, 0x00, 0x9e, 0xfc, 0xff, 0xff, 0x00, 0x00, 0x00, 0x01, 
  0x14, 0x00, 0x00, 0x00, 0x1c, 0x00, 0x00, 0x00, 0x1c, 0x00, 0x00, 0x00, 
  0x0b, 0x00, 0x00, 0x00, 0x78, 0x00, 0x00, 0x00, 0x02, 0x00, 0x00, 0x00, 
  0xff, 0xff, 0xff, 0xff, 0x08, 0x00, 0x00, 0x00, 0x88, 0xfc, 0xff, 0xff, 
  0x5e, 0x00, 0x00, 0x00, 0x73, 0x65, 0x71, 0x75, 0x65, 0x6e, 0x74, 0x69, 
  0x61, 0x6c, 0x5f, 0x31, 0x5f, 0x31, 0x2f, 0x64, 0x65, 0x6e, 0x73, 0x65, 
  0x5f, 0x35, 0x5f, 0x31, 0x2f, 0x4d, 0x61, 0x74, 0x4d, 0x75, 0x6c, 0x3b, 
  0x73, 0x65, 0x71, 0x75, 0x65, 0x6e, 0x74, 0x69, 0x61, 0x6c, 0x5f, 0x31, 
  0x5f, 0x31, 0x2f, 0x64, 0x65, 0x6e, 0x73, 0x65, 0x5f, 0x35, 0x5f, 0x31, 
  0x2f, 0x52, 0x65, 0x6c, 0x75, 0x3b, 0x73, 0x65, 0x71, 0x75, 0x65, 0x6e, 
  0x74, 0x69, 0x61, 0x6c, 0x5f, 0x31, 0x5f, 0x31, 0x2f, 0x64, 0x65, 0x6e, 
  0x73, 0x65, 0x5f, 0x35, 0x5f, 0x31, 0x2f, 0x42, 0x69, 0x61, 0x73, 0x41, 
  0x64, 0x64, 0x00, 0x00, 0x02, 0x00, 0x00, 0x00, 0x01, 0x00, 0x00, 0x00, 
  0x08, 0x00, 0x00, 0x00, 0x3a, 0xfd, 0xff, 0xff, 0x00, 0x00, 0x00, 0x01, 
  0x14, 0x00, 0x00, 0x00, 0x1c, 0x00, 0x00, 0x00, 0x1c, 0x00, 0x00, 0x00, 
  0x0a, 0x00, 0x00, 0x00, 0x78, 0x00, 0x00, 0x00, 0x02, 0x00, 0x00, 0x00, 
  0xff, 0xff, 0xff, 0xff, 0x10, 0x00, 0x00, 0x00, 0x24, 0xfd, 0xff, 0xff, 
  0x5e, 0x00, 0x00, 0x00, 0x73, 0x65, 0x71, 0x75, 0x65, 0x6e, 0x74, 0x69, 
  0x61, 0x6c, 0x5f, 0x31, 0x5f, 0x31, 0x2f, 0x64, 0x65, 0x6e, 0x73, 0x65, 
  0x5f, 0x34, 0x5f, 0x31, 0x2f, 0x4d, 0x61, 0x74, 0x4d, 0x75, 0x6c, 0x3b, 
  0x73, 0x65, 0x71, 0x75, 0x65, 0x6e, 0x74, 0x69, 0x61, 0x6c, 0x5f, 0x31, 
  0x5f, 0x31, 0x2f, 0x64, 0x65, 0x6e, 0x73, 0x65, 0x5f, 0x34, 0x5f, 0x31, 
  0x2f, 0x52, 0x65, 0x6c, 0x75, 0x3b, 0x73, 0x65, 0x71, 0x75, 0x65, 0x6e, 
  0x74, 0x69, 0x61, 0x6c, 0x5f, 0x31, 0x5f, 0x31, 0x2f, 0x64, 0x65, 0x6e, 
  0x73, 0x65, 0x5f, 0x34, 0x5f, 0x31, 0x2f, 0x42, 0x69, 0x61, 0x73, 0x41, 
  0x64, 0x64, 0x00, 0x00, 0x02, 0x00, 0x00, 0x00, 0x01, 0x00, 0x00, 0x00, 
  0x10, 0x00, 0x00, 0x00, 0x26, 0xfe, 0xff, 0xff, 0x00, 0x00, 0x00, 0x01, 
  0x10, 0x00, 0x00, 0x00, 0x10, 0x00, 0x00, 0x00, 0x09, 0x00, 0x00, 0x00, 
  0x4c, 0x00, 0x00, 0x00, 0xb0, 0xfd, 0xff, 0xff, 0x3e, 0x00, 0x00, 0x00, 
  0x73, 0x65, 0x71, 0x75, 0x65, 0x6e, 0x74, 0x69, 0x61, 0x6c, 0x5f, 0x31, 
  0x5f, 0x31, 0x2f, 0x64, 0x65, 0x6e, 0x73, 0x65, 0x5f, 0x34, 0x5f, 0x31, 
  0x2f, 0x52, 0x65, 0x6c, 0x75, 0x3b, 0x73, 0x65, 0x71, 0x75, 0x65, 0x6e, 
  0x74, 0x69, 0x61, 0x6c, 0x5f, 0x31, 0x5f, 0x31, 0x2f, 0x64, 0x65, 0x6e, 
  0x73, 0x65, 0x5f, 0x34, 0x5f, 0x31, 0x2f, 0x42, 0x69, 0x61, 0x73, 0x41, 
  0x64, 0x64, 0x00, 0x00, 0x01, 0x00, 0x00, 0x00, 0x10, 0x00, 0x00, 0x00, 
  0x8e, 0xfe, 0xff, 0xff, 0x00, 0x00, 0x00, 0x01, 0x10, 0x00, 0x00, 0x00, 
  0x10, 0x00, 0x00, 0x00, 0x08, 0x00, 0x00, 0x00, 0x2c, 0x00, 0x00, 0x00, 
  0x18, 0xfe, 0xff, 0xff, 0x1f, 0x00, 0x00, 0x00, 0x73, 0x65, 0x71, 0x75, 
  0x65, 0x6e, 0x74, 0x69, 0x61, 0x6c, 0x5f, 0x31, 0x5f, 0x31, 0x2f, 0x64, 
  0x65, 0x6e, 0x73, 0x65, 0x5f, 0x34, 0x5f, 0x31, 0x2f, 0x4d, 0x61, 0x74, 
  0x4d, 0x75, 0x6c, 0x00, 0x02, 0x00, 0x00, 0x00, 0x10, 0x00, 0x00, 0x00, 
  0x02, 0x00, 0x00, 0x00, 0xda, 0xfe, 0xff, 0xff, 0x00, 0x00, 0x00, 0x01, 
  0x10, 0x00, 0x00, 0x00, 0x10, 0x00, 0x00, 0x00, 0x07, 0x00, 0x00, 0x00, 
  0x1c, 0x00, 0x00, 0x00, 0x64, 0xfe, 0xff, 0xff, 0x0f, 0x00, 0x00, 0x00, 
  0x61, 0x72, 0x69, 0x74, 0x68, 0x2e, 0x63, 0x6f, 0x6e, 0x73, 0x74, 0x61, 
  0x6e, 0x74, 0x35, 0x00, 0x02, 0x00, 0x00, 0x00, 0x08, 0x00, 0x00, 0x00, 
  0x10, 0x00, 0x00, 0x00, 0x16, 0xff, 0xff, 0xff, 0x00, 0x00, 0x00, 0x01, 
  0x10, 0x00, 0x00, 0x00, 0x10, 0x00, 0x00, 0x00, 0x06, 0x00, 0x00, 0x00, 
  0x1c, 0x00, 0x00, 0x00, 0xa0, 0xfe, 0xff, 0xff, 0x0f, 0x00, 0x00, 0x00, 
  0x61, 0x72, 0x69, 0x74, 0x68, 0x2e, 0x63, 0x6f, 0x6e, 0x73, 0x74, 0x61, 
  0x6e, 0x74, 0x34, 0x00, 0x02, 0x00, 0x00, 0x00, 0x04, 0x00, 0x00, 0x00, 
  0x08, 0x00, 0x00, 0x00, 0x52, 0xff, 0xff, 0xff, 0x00, 0x00, 0x00, 0x01, 
  0x10, 0x00, 0x00, 0x00, 0x10, 0x00, 0x00, 0x00, 0x05, 0x00, 0x00, 0x00, 
  0x1c, 0x00, 0x00, 0x00, 0xdc, 0xfe, 0xff, 0xff, 0x0f, 0x00, 0x00, 0x00, 
  0x61, 0x72, 0x69, 0x74, 0x68, 0x2e, 0x63, 0x6f, 0x6e, 0x73, 0x74, 0x61, 
  0x6e, 0x74, 0x33, 0x00, 0x02, 0x00, 0x00, 0x00, 0x01, 0x00, 0x00, 0x00, 
  0x04, 0x00, 0x00, 0x00, 0x8e, 0xff, 0xff, 0xff, 0x00, 0x00, 0x00, 0x01, 
  0x10, 0x00, 0x00, 0x00, 0x10, 0x00, 0x00, 0x00, 0x04, 0x00, 0x00, 0x00, 
  0x1c, 0x00, 0x00, 0x00, 0x18, 0xff, 0xff, 0xff, 0x0f, 0x00, 0x00, 0x00, 
  0x61, 0x72, 0x69, 0x74, 0x68, 0x2e, 0x63, 0x6f, 0x6e, 0x73, 0x74, 0x61, 
  0x6e, 0x74, 0x32, 0x00, 0x01, 0x00, 0x00, 0x00, 0x01, 0x00, 0x00, 0x00, 
  0xc6, 0xff, 0xff, 0xff, 0x00, 0x00, 0x00, 0x01, 0x10, 0x00, 0x00, 0x00, 
  0x10, 0x00, 0x00, 0x00, 0x03, 0x00, 0x00, 0x00, 0x1c, 0x00, 0x00, 0x00, 
  0x50, 0xff, 0xff, 0xff, 0x0f, 0x00, 0x00, 0x00, 0x61, 0x72, 0x69, 0x74, 
  0x68, 0x2e, 0x63, 0x6f, 0x6e, 0x73, 0x74, 0x61, 0x6e, 0x74, 0x31, 0x00, 
  0x01, 0x00, 0x00, 0x00, 0x08, 0x00, 0x00, 0x00, 0x00, 0x00, 0x16, 0x00, 
  0x18, 0x00, 0x14, 0x00, 0x00, 0x00, 0x10, 0x00, 0x0c, 0x00, 0x08, 0x00, 
  0x00, 0x00, 0x00, 0x00, 0x00, 0x00, 0x07, 0x00, 0x16, 0x00, 0x00, 0x00, 
  0x00, 0x00, 0x00, 0x01, 0x10, 0x00, 0x00, 0x00, 0x10, 0x00, 0x00, 0x00, 
  0x02, 0x00, 0x00, 0x00, 0x1c, 0x00, 0x00, 0x00, 0xa0, 0xff, 0xff, 0xff, 
  0x0e, 0x00, 0x00, 0x00, 0x61, 0x72, 0x69, 0x74, 0x68, 0x2e, 0x63, 0x6f, 
  0x6e, 0x73, 0x74, 0x61, 0x6e, 0x74, 0x00, 0x00, 0x01, 0x00, 0x00, 0x00, 
  0x04, 0x00, 0x00, 0x00, 0x00, 0x00, 0x16, 0x00, 0x1c, 0x00, 0x18, 0x00, 
  0x00, 0x00, 0x14, 0x00, 0x10, 0x00, 0x0c, 0x00, 0x00, 0x00, 0x00, 0x00, 
  0x08, 0x00, 0x07, 0x00, 0x16, 0x00, 0x00, 0x00, 0x00, 0x00, 0x00, 0x01, 
  0x14, 0x00, 0x00, 0x00, 0x20, 0x00, 0x00, 0x00, 0x20, 0x00, 0x00, 0x00, 
  0x01, 0x00, 0x00, 0x00, 0x40, 0x00, 0x00, 0x00, 0x02, 0x00, 0x00, 0x00, 
  0xff, 0xff, 0xff, 0xff, 0x02, 0x00, 0x00, 0x00, 0x04, 0x00, 0x04, 0x00, 
  0x04, 0x00, 0x00, 0x00, 0x21, 0x00, 0x00, 0x00, 0x73, 0x65, 0x72, 0x76, 
  0x69, 0x6e, 0x67, 0x5f, 0x64, 0x65, 0x66, 0x61, 0x75, 0x6c, 0x74, 0x5f, 
  0x6b, 0x65, 0x72, 0x61, 0x73, 0x5f, 0x74, 0x65, 0x6e, 0x73, 0x6f, 0x72, 
  0x5f, 0x31, 0x31, 0x3a, 0x30, 0x00, 0x00, 0x00, 0x02, 0x00, 0x00, 0x00, 
  0x01, 0x00, 0x00, 0x00, 0x02, 0x00, 0x00, 0x00, 0x02, 0x00, 0x00, 0x00, 
  0x20, 0x00, 0x00, 0x00, 0x04, 0x00, 0x00, 0x00, 0xf4, 0xff, 0xff, 0xff, 
  0x0e, 0x00, 0x00, 0x00, 0x00, 0x00, 0x00, 0x0e, 0x0c, 0x00, 0x0c, 0x00, 
  0x0b, 0x00, 0x00, 0x00, 0x00, 0x00, 0x04, 0x00, 0x0c, 0x00, 0x00, 0x00, 
  0x09, 0x00, 0x00, 0x00, 0x00, 0x00, 0x00, 0x09, 
};
const unsigned int model_2_categories_tflite_len = 3380;
